{
    "0": " ",
    "1": "!",
    "2": "\"",
    "3": "#",
    "4": "$",
    "5": "%",
    "6": "&",
    "7": "'",
    "8": "(",
    "9": ")",
    "10": "*",
    "11": "+",
    "12": ",",
    "13": "-",
    "14": ".",
    "15": "/",
    "16": "0",
    "17": "1",
    "18": "2",
    "19": "3",
    "20": "4",
    "21": "5",
    "22": "6",
    "23": "7",
    "24": "8",
    "25": "9",
    "26": ":",
    "27": ";",
    "28": "<",
    "29": "=",
    "30": ">",
    "31": "?",
    "32": "@",
    "33": "A",
    "34": "B",
    "35": "C",
    "36": "D",
    "37": "E",
    "38": "F",
    "39": "G",
    "40": "H",
    "41": "I",
    "42": "J",
    "43": "K",
    "44": "L",
    "45": "M",
    "46": "N",
    "47": "O",
    "48": "P",
    "49": "Q",
    "50": "R",
    "51": "S",
    "52": "T",
    "53": "U",
    "54": "V",
    "55": "W",
    "56": "X",
    "57": "Y",
    "58": "Z",
    "59": "[",
    "60": "\\",
    "61": "]",
    "62": "^",
    "63": "`",
    "64": "a",
    "65": "b",
    "66": "c",
    "67": "d",
    "68": "e",
    "69": "f",
    "70": "g",
    "71": "h",
    "72": "i",
    "73": "j",
    "74": "k",
    "75": "l",
    "76": "m",
    "77": "n",
    "78": "o",
    "79": "p",
    "80": "q",
    "81": "r",
    "82": "s",
    "83": "t",
    "84": "u",
    "85": "v",
    "86": "w",
    "87": "x",
    "88": "y",
    "89": "z",
    "90": "{",
    "91": "|",
    "92": "}",
    "93": "~",
    "94": "À",
    "95": "Á",
    "96": "Â",
    "97": "Ã",
    "98": "Ç",
    "99": "É",
    "100": "Ê",
    "101": "Í",
    "102": "Ó",
    "103": "Ô",
    "104": "Õ",
    "105": "Ú",
    "106": "à",
    "107": "á",
    "108": "â",
    "109": "ã",
    "110": "ç",
    "111": "é",
    "112": "ê",
    "113": "í",
    "114": "ó",
    "115": "ô",
    "116": "õ",
    "117": "ú",
    "118": "ü",
    "119": " d",
    "120": " e",
    "121": " p",
    "122": " a",
    "123": "ra",
    "124": " de",
    "125": " c",
    "126": "os",
    "127": "nt",
    "128": "re",
    "129": " s",
    "130": "ma",
    "131": "er",
    "132": "as",
    "133": "es",
    "134": " u",
    "135": "is",
    "136": " co",
    "137": "qu",
    "138": "ar",
    "139": " o",
    "140": "me",
    "141": "ad",
    "142": "or",
    "143": "in",
    "144": " t",
    "145": "ão",
    "146": " f",
    "147": "ic",
    "148": " qu",
    "149": "al",
    "150": "ara",
    "151": " n",
    "152": "id",
    "153": "nd",
    "154": "ia",
    "155": "nte",
    "156": "ro",
    "157": " v",
    "158": " com",
    "159": "st",
    "160": " que",
    "161": " para",
    "162": "it",
    "163": " se",
    "164": " um",
    "165": " m",
    "166": "em",
    "167": " re",
    "168": " ma",
    "169": " uma",
    "170": "ri",
    "171": " l",
    "172": " em",
    "173": "on",
    "174": "ção",
    "175": "gu",
    "176": "nc",
    "177": " é",
    "178": "oc",
    "179": " A",
    "180": " po",
    "181": "ta",
    "182": "ment",
    "183": "ve",
    "184": "ti",
    "185": " do",
    "186": "so",
    "187": "res",
    "188": "le",
    "189": " b",
    "190": " est",
    "191": " C",
    "192": " E",
    "193": "ndo",
    "194": "en",
    "195": "la",
    "196": "de",
    "197": " g",
    "198": "te",
    "199": " in",
    "200": "lh",
    "201": " me",
    "202": "ado",
    "203": "ci",
    "204": "am",
    "205": " pro",
    "206": "lo",
    "207": "ica",
    "208": " ou",
    "209": " su",
    "210": " O",
    "211": "to",
    "212": "ir",
    "213": " da",
    "214": " os",
    "215": "im",
    "216": "ocê",
    "217": "se",
    "218": "idad",
    "219": " as",
    "220": "mente",
    "221": "an",
    "222": "ões",
    "223": " al",
    "224": " no",
    "225": "mento",
    "226": " es",
    "227": "ent",
    "228": "va",
    "229": "ec",
    "230": " P",
    "231": " con",
    "232": "ha",
    "233": "do",
    "234": " mais",
    "235": " ex",
    "236": "ig",
    "237": " você",
    "238": "if",
    "239": "ol",
    "240": " como",
    "241": "ei",
    "242": "tu",
    "243": "iz",
    "244": " 1",
    "245": "ais",
    "246": " seu",
    "247": "iv",
    "248": "po",
    "249": "ados",
    "250": "mo",
    "251": "ada",
    "252": " por",
    "253": "co",
    "254": "ça",
    "255": "ções",
    "256": "ud",
    "257": " pode",
    "258": " na",
    "259": "ul",
    "260": "rar",
    "261": " des",
    "262": "pe",
    "263": "idade",
    "264": " h",
    "265": "ras",
    "266": " S",
    "267": "ando",
    "268": " ser",
    "269": " D",
    "270": " fa",
    "271": "il",
    "272": " so",
    "273": "que",
    "274": "ém",
    "275": " comp",
    "276": " ap",
    "277": "no",
    "278": " us",
    "279": "Qu",
    "280": "du",
    "281": " são",
    "282": " Qu",
    "283": "ce",
    "284": " per",
    "285": "ntes",
    "286": " fo",
    "287": "ns",
    "288": "ida",
    "289": " mu",
    "290": " U",
    "291": " for",
    "292": " M",
    "293": " i",
    "294": "ere",
    "295": "ncia",
    "296": "tiv",
    "297": "io",
    "298": "esso",
    "299": "ru",
    "300": "lu",
    "301": "ito",
    "302": " en",
    "303": " I",
    "304": "da",
    "305": " ca",
    "306": " Co",
    "307": "ári",
    "308": "ie",
    "309": "imp",
    "310": "ico",
    "311": "ist",
    "312": " tem",
    "313": " pre",
    "314": "cu",
    "315": "go",
    "316": "ação",
    "317": " melh",
    "318": " tra",
    "319": " pe",
    "320": "ho",
    "321": " T",
    "322": " segu",
    "323": "ver",
    "324": "bre",
    "325": "ter",
    "326": " F",
    "327": "mas",
    "328": " ar",
    "329": " 2",
    "330": " ve",
    "331": " sua",
    "332": "tos",
    "333": "nto",
    "334": " to",
    "335": "ido",
    "336": "ria",
    "337": "vel",
    "338": " não",
    "339": " sa",
    "340": " j",
    "341": " ent",
    "342": " N",
    "343": " pos",
    "344": " pod",
    "345": " mo",
    "346": "ros",
    "347": "ion",
    "348": " aj",
    "349": "ag",
    "350": " sobre",
    "351": " imp",
    "352": " R",
    "353": " dis",
    "354": "ens",
    "355": "pa",
    "356": " inc",
    "357": "era",
    "358": " G",
    "359": "amb",
    "360": " cl",
    "361": " algu",
    "362": "ência",
    "363": " man",
    "364": "ina",
    "365": " V",
    "366": "ias",
    "367": " ajud",
    "368": " cont",
    "369": "ambém",
    "370": " faz",
    "371": " ao",
    "372": "ou",
    "373": " está",
    "374": "mentos",
    "375": "ess",
    "376": "les",
    "377": "icas",
    "378": "eira",
    "379": "nde",
    "380": " res",
    "381": " B",
    "382": "cre",
    "383": " exp",
    "384": " pr",
    "385": "are",
    "386": " at",
    "387": " pesso",
    "388": " dos",
    "389": "ut",
    "390": "nos",
    "391": "us",
    "392": " 3",
    "393": "ite",
    "394": " também",
    "395": " foi",
    "396": "tura",
    "397": " am",
    "398": " car",
    "399": "he",
    "400": " te",
    "401": "veis",
    "402": " le",
    "403": "idades",
    "404": " á",
    "405": " out",
    "406": " ele",
    "407": "icos",
    "408": "tar",
    "409": "vol",
    "410": " ter",
    "411": " à",
    "412": "je",
    "413": " melhor",
    "414": " dif",
    "415": "icar",
    "416": "entes",
    "417": "vi",
    "418": "for",
    "419": "nco",
    "420": " inclu",
    "421": "adas",
    "422": "cis",
    "423": "dos",
    "424": " fra",
    "425": "ique",
    "426": " fazer",
    "427": " L",
    "428": "ala",
    "429": " pa",
    "430": "bal",
    "431": "gia",
    "432": " fu",
    "433": " podem",
    "434": " Al",
    "435": "na",
    "436": " Est",
    "437": "tas",
    "438": " pla",
    "439": "ja",
    "440": " cu",
    "441": "íci",
    "442": " ac",
    "443": " cor",
    "444": "sa",
    "445": "ista",
    "446": " gra",
    "447": " par",
    "448": "ne",
    "449": "ing",
    "450": "ial",
    "451": " ob",
    "452": "iste",
    "453": "ira",
    "454": "nter",
    "455": "iente",
    "456": "pos",
    "457": " 5",
    "458": "itos",
    "459": "gra",
    "460": " Os",
    "461": " 4",
    "462": "inh",
    "463": " ti",
    "464": "ca",
    "465": " au",
    "466": "cion",
    "467": " maneira",
    "468": " emp",
    "469": " cri",
    "470": " seus",
    "471": " pri",
    "472": " ba",
    "473": " cons",
    "474": "almente",
    "475": "ade",
    "476": " or",
    "477": " entre",
    "478": " Como",
    "479": "qui",
    "480": " ver",
    "481": " esta",
    "482": "ário",
    "483": " vez",
    "484": "ga",
    "485": "mp",
    "486": " tempo",
    "487": "indo",
    "488": "nça",
    "489": "ças",
    "490": "ix",
    "491": "nda",
    "492": "inha",
    "493": " inte",
    "494": "ura",
    "495": " eu",
    "496": " nos",
    "497": "nec",
    "498": "duz",
    "499": "ncont",
    "500": " difere",
    "501": "ima",
    "502": "ita",
    "503": " H",
    "504": " das",
    "505": "orta",
    "506": "anto",
    "507": "ador",
    "508": "vo",
    "509": " dados",
    "510": " cer",
    "511": "be",
    "512": "ço",
    "513": " Você",
    "514": " an",
    "515": " suas",
    "516": "ável",
    "517": "ine",
    "518": " esp",
    "519": "bo",
    "520": " id",
    "521": " trabal",
    "522": "ass",
    "523": " mas",
    "524": "con",
    "525": " ne",
    "526": "rie",
    "527": " ra",
    "528": " precis",
    "529": " ro",
    "530": " pessoas",
    "531": "ram",
    "532": " qual",
    "533": "idos",
    "534": " frase",
    "535": "aliz",
    "536": "alav",
    "537": " J",
    "538": "fic",
    "539": " melho",
    "540": "eri",
    "541": " ajudar",
    "542": " ab",
    "543": "nder",
    "544": " palav",
    "545": " apre",
    "546": "bil",
    "547": " r",
    "548": "fe",
    "549": "um",
    "550": " come",
    "551": " tor",
    "552": "ge",
    "553": "ários",
    "554": "agem",
    "555": "dade",
    "556": "tica",
    "557": " lu",
    "558": " Qual",
    "559": "lha",
    "560": " bo",
    "561": " cas",
    "562": "ign",
    "563": " ass",
    "564": " gera",
    "565": " pes",
    "566": "00",
    "567": "ant",
    "568": " di",
    "569": " conc",
    "570": "un",
    "571": "quer",
    "572": "mos",
    "573": " encont",
    "574": "creva",
    "575": "ês",
    "576": " Es",
    "577": " disso",
    "578": "stru",
    "579": "los",
    "580": " fornec",
    "581": "ição",
    "582": "icion",
    "583": "das",
    "584": "ios",
    "585": " usar",
    "586": "itas",
    "587": "eiro",
    "588": "iver",
    "589": " Quais",
    "590": "ifica",
    "591": " ch",
    "592": " prime",
    "593": " estão",
    "594": "ac",
    "595": "ero",
    "596": "ível",
    "597": "erc",
    "598": " ad",
    "599": "forma",
    "600": " pra",
    "601": "emp",
    "602": " deve",
    "603": "lica",
    "604": "éd",
    "605": " muito",
    "606": " sol",
    "607": " segui",
    "608": " forma",
    "609": "est",
    "610": " rela",
    "611": " importa",
    "612": " As",
    "613": "ress",
    "614": "el",
    "615": " produ",
    "616": " Além",
    "617": "lar",
    "618": "pera",
    "619": " Uma",
    "620": " No",
    "621": "iro",
    "622": "quis",
    "623": "igo",
    "624": "por",
    "625": " cha",
    "626": "cul",
    "627": "gua",
    "628": " Ele",
    "629": "ís",
    "630": " ú",
    "631": "min",
    "632": " Re",
    "633": "ientes",
    "634": " Um",
    "635": "gan",
    "636": " liv",
    "637": "gem",
    "638": "ber",
    "639": " experi",
    "640": " jo",
    "641": "tivo",
    "642": "ente",
    "643": "gar",
    "644": "cip",
    "645": "lho",
    "646": " Eu",
    "647": " reduz",
    "648": " is",
    "649": " Des",
    "650": "tiva",
    "651": " Por",
    "652": " alguns",
    "653": "tivos",
    "654": "ços",
    "655": "áveis",
    "656": " ener",
    "657": " eles",
    "658": "ior",
    "659": "amento",
    "660": " mar",
    "661": " cam",
    "662": "itar",
    "663": " cria",
    "664": "ntos",
    "665": " De",
    "666": " posso",
    "667": " Con",
    "668": "iar",
    "669": "at",
    "670": "sos",
    "671": "istó",
    "672": "za",
    "673": " mes",
    "674": " vida",
    "675": " prin",
    "676": "tes",
    "677": "envol",
    "678": " loc",
    "679": " bem",
    "680": "ves",
    "681": "erra",
    "682": "ecess",
    "683": " criar",
    "684": " trabalho",
    "685": " 6",
    "686": " outros",
    "687": " necess",
    "688": " ho",
    "689": "íveis",
    "690": " siste",
    "691": " Se",
    "692": " histó",
    "693": " proc",
    "694": " lista",
    "695": "úm",
    "696": "idas",
    "697": " conf",
    "698": "ble",
    "699": "cur",
    "700": " Ex",
    "701": " energia",
    "702": " Em",
    "703": " sign",
    "704": " ha",
    "705": " tr",
    "706": " isso",
    "707": " quando",
    "708": " geral",
    "709": "itu",
    "710": "ód",
    "711": " vis",
    "712": "tif",
    "713": " informa",
    "714": "tr",
    "715": " bas",
    "716": " Crie",
    "717": " empres",
    "718": " ta",
    "719": "ust",
    "720": " todos",
    "721": "çar",
    "722": " cada",
    "723": " on",
    "724": " W",
    "725": " prof",
    "726": " poder",
    "727": " incluem",
    "728": " reduzir",
    "729": "ás",
    "730": "ib",
    "731": "izar",
    "732": " diferentes",
    "733": " algumas",
    "734": "úde",
    "735": " princip",
    "736": " lon",
    "737": " dia",
    "738": "line",
    "739": " econ",
    "740": "rio",
    "741": " of",
    "742": " pesquis",
    "743": " amb",
    "744": "om",
    "745": "tor",
    "746": "tir",
    "747": " med",
    "748": " É",
    "749": "quanto",
    "750": " mundo",
    "751": " 19",
    "752": "ificar",
    "753": "uma",
    "754": " torn",
    "755": " Un",
    "756": " seguinte",
    "757": "vem",
    "758": " inter",
    "759": " núm",
    "760": " neg",
    "761": "har",
    "762": "iss",
    "763": " tipo",
    "764": "iais",
    "765": " saúde",
    "766": " poss",
    "767": "ós",
    "768": " até",
    "769": "óp",
    "770": " tec",
    "771": " encontrar",
    "772": " água",
    "773": " rece",
    "774": "pon",
    "775": "cimento",
    "776": "ícios",
    "777": "tal",
    "778": " trans",
    "779": " du",
    "780": " proble",
    "781": " perm",
    "782": " fe",
    "783": " Para",
    "784": "ncias",
    "785": " 7",
    "786": "êm",
    "787": " importante",
    "788": "nta",
    "789": " desenvol",
    "790": " mud",
    "791": " ind",
    "792": " quais",
    "793": " 8",
    "794": " maior",
    "795": " ali",
    "796": "aref",
    "797": " esc",
    "798": "ur",
    "799": " obje",
    "800": " fam",
    "801": " este",
    "802": "las",
    "803": "ntas",
    "804": " méd",
    "805": "mar",
    "806": "sta",
    "807": " soc",
    "808": " taref",
    "809": " enquanto",
    "810": "ivo",
    "811": " pers",
    "812": "tamente",
    "813": " exemp",
    "814": " recur",
    "815": " cal",
    "816": "erar",
    "817": "inu",
    "818": "rada",
    "819": "ração",
    "820": " esco",
    "821": "lig",
    "822": " var",
    "823": " uso",
    "824": " fil",
    "825": "adores",
    "826": "ntir",
    "827": " muitas",
    "828": " ativ",
    "829": "gor",
    "830": " pelo",
    "831": " má",
    "832": " regu",
    "833": "és",
    "834": " sal",
    "835": "ín",
    "836": "bl",
    "837": "fica",
    "838": " fal",
    "839": "ódigo",
    "840": " it",
    "841": " palavras",
    "842": " ref",
    "843": "nolo",
    "844": " la",
    "845": "ula",
    "846": " casa",
    "847": " era",
    "848": "ências",
    "849": "tifique",
    "850": " 10",
    "851": "té",
    "852": " dire",
    "853": " progra",
    "854": " base",
    "855": "per",
    "856": " ten",
    "857": " pergu",
    "858": " arti",
    "859": " áre",
    "860": " x",
    "861": " envol",
    "862": "ene",
    "863": " código",
    "864": " significa",
    "865": "tra",
    "866": "ân",
    "867": " história",
    "868": " sistema",
    "869": " atra",
    "870": " Is",
    "871": " pass",
    "872": " tent",
    "873": " val",
    "874": "át",
    "875": " pi",
    "876": "car",
    "877": " pop",
    "878": " recursos",
    "879": " estra",
    "880": " sub",
    "881": "izado",
    "882": "rança",
    "883": " capa",
    "884": " servi",
    "885": " saud",
    "886": "eiras",
    "887": " usando",
    "888": "bilidade",
    "889": " informações",
    "890": " gara",
    "891": " cliente",
    "892": " cur",
    "893": " tecnolo",
    "894": "dor",
    "895": "inalmente",
    "896": "ino",
    "897": " ó",
    "898": "var",
    "899": " palavra",
    "900": " lo",
    "901": " melhores",
    "902": "iedade",
    "903": " dois",
    "904": " def",
    "905": "ôn",
    "906": "óci",
    "907": " anos",
    "908": " primeiro",
    "909": "mentar",
    "910": " coz",
    "911": "urante",
    "912": " op",
    "913": "imento",
    "914": "can",
    "915": " sem",
    "916": " huma",
    "917": "inheiro",
    "918": "up",
    "919": " inves",
    "920": " comple",
    "921": " organ",
    "922": " negóci",
    "923": " atu",
    "924": " deter",
    "925": " corre",
    "926": "resent",
    "927": "quen",
    "928": " Cer",
    "929": " Isso",
    "930": "til",
    "931": " aprend",
    "932": " consid",
    "933": "ncion",
    "934": "hec",
    "935": "eb",
    "936": "aram",
    "937": "árias",
    "938": " manter",
    "939": "et",
    "940": " pessoa",
    "941": " empre",
    "942": " qualquer",
    "943": " grande",
    "944": " exemplo",
    "945": "loc",
    "946": " anima",
    "947": " nome",
    "948": "val",
    "949": "lhe",
    "950": " fornecer",
    "951": " meu",
    "952": "ifique",
    "953": " nas",
    "954": " aqui",
    "955": "ingu",
    "956": " dinheiro",
    "957": " adicion",
    "958": "iva",
    "959": " há",
    "960": " chama",
    "961": "rig",
    "962": " conta",
    "963": " três",
    "964": " aplica",
    "965": "istas",
    "966": "sas",
    "967": " melhorar",
    "968": "mb",
    "969": "vis",
    "970": " mesmo",
    "971": " procu",
    "972": "ific",
    "973": " conte",
    "974": "ática",
    "975": "culo",
    "976": "man",
    "977": " ajudá",
    "978": " ela",
    "979": " lim",
    "980": "vimento",
    "981": " inf",
    "982": "gre",
    "983": " dec",
    "984": "íc",
    "985": " pres",
    "986": "iga",
    "987": " Fa",
    "988": "ús",
    "989": " apro",
    "990": " proje",
    "991": " constru",
    "992": " comun",
    "993": " pela",
    "994": "anh",
    "995": " espe",
    "996": " comput",
    "997": "gos",
    "998": "rem",
    "999": "xto",
    "1000": "iros",
    "1001": " econom",
    "1002": "vas",
    "1003": " mudan",
    "1004": " si",
    "1005": " reco",
    "1006": "éc",
    "1007": "çamento",
    "1008": " pequen",
    "1009": "ál",
    "1010": " tarefas",
    "1011": " número",
    "1012": "lher",
    "1013": " outras",
    "1014": " longo",
    "1015": "ér",
    "1016": " têm",
    "1017": " país",
    "1018": " pote",
    "1019": "tado",
    "1020": "mes",
    "1021": " garantir",
    "1022": " duas",
    "1023": "bilidades",
    "1024": " contra",
    "1025": " via",
    "1026": " determin",
    "1027": " person",
    "1028": "fa",
    "1029": " pú",
    "1030": "ações",
    "1031": " cul",
    "1032": " estava",
    "1033": " site",
    "1034": " aprender",
    "1035": " seguida",
    "1036": " nu",
    "1037": " prote",
    "1038": " bene",
    "1039": " In",
    "1040": "ício",
    "1041": " Quando",
    "1042": " tecnologia",
    "1043": "imo",
    "1044": " resul",
    "1045": "cil",
    "1046": "rias",
    "1047": " usu",
    "1048": " mode",
    "1049": " funcion",
    "1050": " plano",
    "1051": "cos",
    "1052": " caus",
    "1053": " novo",
    "1054": " seja",
    "1055": " sent",
    "1056": " comb",
    "1057": "mental",
    "1058": "vos",
    "1059": "íf",
    "1060": "tic",
    "1061": " desco",
    "1062": " Finalmente",
    "1063": " fina",
    "1064": "ivos",
    "1065": " ju",
    "1066": " pol",
    "1067": " geralmente",
    "1068": " vezes",
    "1069": "rando",
    "1070": " porque",
    "1071": "iu",
    "1072": " ofere",
    "1073": "ncial",
    "1074": "zes",
    "1075": " Pro",
    "1076": " cr",
    "1077": "nce",
    "1078": "lhos",
    "1079": " efic",
    "1080": " onde",
    "1081": "cer",
    "1082": " obter",
    "1083": " ev",
    "1084": " ir",
    "1085": " exerc",
    "1086": "igos",
    "1087": " fre",
    "1088": " 9",
    "1089": "inho",
    "1090": " aos",
    "1091": "crever",
    "1092": "bu",
    "1093": "orre",
    "1094": " cust",
    "1095": "ip",
    "1096": " baix",
    "1097": " vo",
    "1098": "cional",
    "1099": "ral",
    "1100": " espec",
    "1101": " orçamento",
    "1102": "dia",
    "1103": " gere",
    "1104": " sé",
    "1105": "ular",
    "1106": "agens",
    "1107": " antes",
    "1108": "tivas",
    "1109": "igu",
    "1110": " go",
    "1111": " auto",
    "1112": " ident",
    "1113": " ci",
    "1114": "ivers",
    "1115": "iam",
    "1116": " atividades",
    "1117": " 20",
    "1118": "maz",
    "1119": " ente",
    "1120": "rado",
    "1121": " Com",
    "1122": " ris",
    "1123": " Estados",
    "1124": " benef",
    "1125": "vor",
    "1126": "ft",
    "1127": "der",
    "1128": " permit",
    "1129": " programa",
    "1130": "ware",
    "1131": "lhas",
    "1132": " rep",
    "1133": " muitos",
    "1134": " pas",
    "1135": " maneiras",
    "1136": " ajuda",
    "1137": " cidade",
    "1138": " Su",
    "1139": " segurança",
    "1140": " IA",
    "1141": " relacion",
    "1142": " lingu",
    "1143": "jo",
    "1144": "pida",
    "1145": "ismo",
    "1146": " empresa",
    "1147": " área",
    "1148": "ch",
    "1149": " Unidos",
    "1150": "ise",
    "1151": " carro",
    "1152": " começar",
    "1153": "ressão",
    "1154": "mpre",
    "1155": " Ap",
    "1156": " menos",
    "1157": "nças",
    "1158": " usado",
    "1159": " reg",
    "1160": " especi",
    "1161": "vés",
    "1162": " equi",
    "1163": " cois",
    "1164": " natura",
    "1165": "enas",
    "1166": " quaisquer",
    "1167": " estraté",
    "1168": " públ",
    "1169": " alimentos",
    "1170": " mús",
    "1171": " minha",
    "1172": " Descreva",
    "1173": " processo",
    "1174": "ião",
    "1175": "ntro",
    "1176": "rit",
    "1177": " itens",
    "1178": " Jo",
    "1179": " plane",
    "1180": " K",
    "1181": "th",
    "1182": "ono",
    "1183": " un",
    "1184": " habilidades",
    "1185": " favor",
    "1186": " prop",
    "1187": " experiência",
    "1188": "ará",
    "1189": "vido",
    "1190": "menta",
    "1191": " process",
    "1192": " rá",
    "1193": "ância",
    "1194": "UA",
    "1195": "pende",
    "1196": " quant",
    "1197": " fin",
    "1198": " problemas",
    "1199": " durante",
    "1200": " Escreva",
    "1201": " diz",
    "1202": "endo",
    "1203": " às",
    "1204": " incluindo",
    "1205": " benefícios",
    "1206": " merc",
    "1207": " ga",
    "1208": "óx",
    "1209": " EUA",
    "1210": " regular",
    "1211": "pl",
    "1212": "oso",
    "1213": "ela",
    "1214": "tação",
    "1215": " texto",
    "1216": " er",
    "1217": "ições",
    "1218": "one",
    "1219": " espa",
    "1220": " máqu",
    "1221": "resse",
    "1222": " pens",
    "1223": " Me",
    "1224": " efe",
    "1225": " gos",
    "1226": "para",
    "1227": "udo",
    "1228": " equ",
    "1229": "tados",
    "1230": "tores",
    "1231": " gover",
    "1232": "íl",
    "1233": " che",
    "1234": "lti",
    "1235": " gu",
    "1236": " fá",
    "1237": " computador",
    "1238": " ambiente",
    "1239": " Eles",
    "1240": " tipos",
    "1241": "ução",
    "1242": " foram",
    "1243": " através",
    "1244": " cin",
    "1245": " ins",
    "1246": "eros",
    "1247": "ju",
    "1248": " clientes",
    "1249": " ant",
    "1250": " concent",
    "1251": " Ela",
    "1252": " ações",
    "1253": "gias",
    "1254": " popula",
    "1255": "dicion",
    "1256": " usada",
    "1257": " linguagem",
    "1258": " principais",
    "1259": " fís",
    "1260": " devem",
    "1261": " Gere",
    "1262": " defin",
    "1263": "gorit",
    "1264": "turas",
    "1265": " cres",
    "1266": " produtos",
    "1267": "gred",
    "1268": " pesquisa",
    "1269": " cara",
    "1270": "cas",
    "1271": " então",
    "1272": " conse",
    "1273": " conhec",
    "1274": "orte",
    "1275": "íst",
    "1276": "ord",
    "1277": " corpo",
    "1278": " serviços",
    "1279": " va",
    "1280": " precisa",
    "1281": "este",
    "1282": "ard",
    "1283": " produto",
    "1284": "pois",
    "1285": "stitu",
    "1286": "gue",
    "1287": " incluir",
    "1288": "icação",
    "1289": "ribu",
    "1290": "ên",
    "1291": " primeira",
    "1292": " Ch",
    "1293": " quer",
    "1294": " pare",
    "1295": " recome",
    "1296": " intelig",
    "1297": " aumento",
    "1298": " aprendizado",
    "1299": " livro",
    "1300": "óg",
    "1301": " Aqui",
    "1302": " cond",
    "1303": " efica",
    "1304": "ização",
    "1305": " saudável",
    "1306": " alcan",
    "1307": " pois",
    "1308": " Ma",
    "1309": " Mu",
    "1310": " local",
    "1311": " eve",
    "1312": " Algu",
    "1313": " profiss",
    "1314": " cé",
    "1315": "ftware",
    "1316": " ade",
    "1317": " esse",
    "1318": "adr",
    "1319": "xa",
    "1320": " ate",
    "1321": " algorit",
    "1322": " class",
    "1323": "ôm",
    "1324": "nciais",
    "1325": "inas",
    "1326": " investi",
    "1327": " lugar",
    "1328": " Certifique",
    "1329": " ún",
    "1330": " parte",
    "1331": " aut",
    "1332": "écn",
    "1333": " dar",
    "1334": "gredientes",
    "1335": "osa",
    "1336": "ger",
    "1337": " tre",
    "1338": " Clar",
    "1339": "áticas",
    "1340": " sempre",
    "1341": " empresas",
    "1342": " próp",
    "1343": "cri",
    "1344": " decis",
    "1345": " tomar",
    "1346": " poderia",
    "1347": " público",
    "1348": " tempera",
    "1349": "porte",
    "1350": " pag",
    "1351": " artigo",
    "1352": "nca",
    "1353": " remo",
    "1354": "cha",
    "1355": " reso",
    "1356": " profission",
    "1357": " Claro",
    "1358": "jam",
    "1359": " ví",
    "1360": " bra",
    "1361": " todas",
    "1362": " variedade",
    "1363": " conver",
    "1364": " xíc",
    "1365": "graf",
    "1366": " armaz",
    "1367": " técn",
    "1368": " xícara",
    "1369": " cinco",
    "1370": " famíl",
    "1371": " aumentar",
    "1372": " vege",
    "1373": " adequ",
    "1374": "lic",
    "1375": "ntar",
    "1376": " alu",
    "1377": " possível",
    "1378": " nova",
    "1379": " boa",
    "1380": "ocu",
    "1381": " ag",
    "1382": " polí",
    "1383": " últi",
    "1384": "údo",
    "1385": "ária",
    "1386": " Este",
    "1387": "pel",
    "1388": " mis",
    "1389": " mercado",
    "1390": " minu",
    "1391": " software",
    "1392": " Estou",
    "1393": "vam",
    "1394": " explo",
    "1395": "ndes",
    "1396": " pou",
    "1397": " Na",
    "1398": " dist",
    "1399": " super",
    "1400": " apenas",
    "1401": " indiv",
    "1402": "lara",
    "1403": " mater",
    "1404": "pri",
    "1405": " dispon",
    "1406": "leg",
    "1407": " armazen",
    "1408": " conteúdo",
    "1409": " apresent",
    "1410": " Mar",
    "1411": " alguém",
    "1412": " negócio",
    "1413": "ses",
    "1414": " máquina",
    "1415": " comprar",
    "1416": " chá",
    "1417": "ture",
    "1418": "cesso",
    "1419": "istem",
    "1420": " problema",
    "1421": " tí",
    "1422": "ficial",
    "1423": " diferença",
    "1424": "rios",
    "1425": "ensão",
    "1426": " simp",
    "1427": "ites",
    "1428": "ced",
    "1429": " toma",
    "1430": " principal",
    "1431": " tenha",
    "1432": " conju",
    "1433": "gens",
    "1434": " carac",
    "1435": "tando",
    "1436": " aco",
    "1437": " dese",
    "1438": " mante",
    "1439": " apo",
    "1440": "cidade",
    "1441": "ital",
    "1442": " filme",
    "1443": " música",
    "1444": " vi",
    "1445": " mi",
    "1446": "ntu",
    "1447": " lado",
    "1448": "pes",
    "1449": "ilo",
    "1450": " dest",
    "1451": " gas",
    "1452": "nas",
    "1453": "tre",
    "1454": " entender",
    "1455": " Expl",
    "1456": "ket",
    "1457": " Y",
    "1458": " tri",
    "1459": " mudanças",
    "1460": " impac",
    "1461": " contro",
    "1462": " Po",
    "1463": " im",
    "1464": "ide",
    "1465": "itivo",
    "1466": "enção",
    "1467": " estru",
    "1468": " inic",
    "1469": " edu",
    "1470": " minutos",
    "1471": " dispos",
    "1472": "rá",
    "1473": "nha",
    "1474": "ize",
    "1475": "inda",
    "1476": " financ",
    "1477": " estar",
    "1478": "itação",
    "1479": " estud",
    "1480": " animais",
    "1481": "amos",
    "1482": " próx",
    "1483": " mé",
    "1484": " w",
    "1485": "fre",
    "1486": " dig",
    "1487": " Esta",
    "1488": " tão",
    "1489": " Come",
    "1490": "ub",
    "1491": "lares",
    "1492": " rec",
    "1493": " papel",
    "1494": " ens",
    "1495": " família",
    "1496": " começ",
    "1497": " desa",
    "1498": "rir",
    "1499": "ts",
    "1500": " jogo",
    "1501": " algo",
    "1502": " emprego",
    "1503": " limp",
    "1504": " ide",
    "1505": " An",
    "1506": " dor",
    "1507": " clim",
    "1508": " ima",
    "1509": " Faça",
    "1510": " profu",
    "1511": " glo",
    "1512": " fru",
    "1513": "erica",
    "1514": " estresse",
    "1515": "ndas",
    "1516": " real",
    "1517": " envolve",
    "1518": " ru",
    "1519": " bom",
    "1520": " valor",
    "1521": " fi",
    "1522": " comu",
    "1523": " outro",
    "1524": " possa",
    "1525": "ordo",
    "1526": " luz",
    "1527": " fontes",
    "1528": " ingredientes",
    "1529": " gru",
    "1530": "ntemente",
    "1531": " várias",
    "1532": " compre",
    "1533": " deix",
    "1534": " natural",
    "1535": " tinha",
    "1536": " Ro",
    "1537": " flo",
    "1538": "des",
    "1539": " desenvolvimento",
    "1540": " Par",
    "1541": " Nome",
    "1542": " plantas",
    "1543": "rações",
    "1544": "fer",
    "1545": " ped",
    "1546": "ãos",
    "1547": " ficar",
    "1548": " óti",
    "1549": " mí",
    "1550": "anha",
    "1551": " padr",
    "1552": " praz",
    "1553": " vários",
    "1554": " af",
    "1555": "leo",
    "1556": "ab",
    "1557": " Não",
    "1558": " el",
    "1559": " modelo",
    "1560": " usuário",
    "1561": "inhas",
    "1562": " acesso",
    "1563": " meio",
    "1564": " livros",
    "1565": " pouco",
    "1566": " cap",
    "1567": " 18",
    "1568": " Ide",
    "1569": " die",
    "1570": " conce",
    "1571": "tó",
    "1572": " ainda",
    "1573": " Ca",
    "1574": " Quem",
    "1575": " títu",
    "1576": " certifique",
    "1577": "ificado",
    "1578": " chamado",
    "1579": "inar",
    "1580": "ran",
    "1581": " Comece",
    "1582": "portu",
    "1583": " objetivos",
    "1584": " risco",
    "1585": " perguntas",
    "1586": " cerca",
    "1587": " seguintes",
    "1588": "tem",
    "1589": " tornar",
    "1590": " vol",
    "1591": " ferra",
    "1592": " específ",
    "1593": "pidamente",
    "1594": " leva",
    "1595": " comer",
    "1596": "ída",
    "1597": " acess",
    "1598": "lhar",
    "1599": " escr",
    "1600": " grandes",
    "1601": " realiz",
    "1602": " ce",
    "1603": "ificação",
    "1604": "tais",
    "1605": " bri",
    "1606": " rapidamente",
    "1607": " amigos",
    "1608": " Gerar",
    "1609": " Que",
    "1610": " governo",
    "1611": " partic",
    "1612": " todo",
    "1613": " aque",
    "1614": " coisas",
    "1615": "keting",
    "1616": "enho",
    "1617": " desemp",
    "1618": " div",
    "1619": " doen",
    "1620": " az",
    "1621": " design",
    "1622": " localiz",
    "1623": " instru",
    "1624": " Gu",
    "1625": " Pre",
    "1626": " sucesso",
    "1627": "hn",
    "1628": " simples",
    "1629": "culos",
    "1630": " oportu",
    "1631": " situ",
    "1632": "ual",
    "1633": " méto",
    "1634": " fácil",
    "1635": " tentando",
    "1636": "pla",
    "1637": " dicas",
    "1638": "amentos",
    "1639": " pontos",
    "1640": " social",
    "1641": " respos",
    "1642": " Ar",
    "1643": " Também",
    "1644": "hecimento",
    "1645": " Ident",
    "1646": " tele",
    "1647": " impos",
    "1648": "enh",
    "1649": "ven",
    "1650": " ano",
    "1651": " To",
    "1652": " eficaz",
    "1653": " potencial",
    "1654": "oco",
    "1655": "ídu",
    "1656": " levar",
    "1657": " be",
    "1658": " can",
    "1659": " dizer",
    "1660": "são",
    "1661": " qualidade",
    "1662": "rou",
    "1663": "ed",
    "1664": " mos",
    "1665": " calor",
    "1666": " Res",
    "1667": " estilo",
    "1668": "aro",
    "1669": " tóp",
    "1670": "pira",
    "1671": "pto",
    "1672": "rvo",
    "1673": " evitar",
    "1674": "bele",
    "1675": " resta",
    "1676": " Use",
    "1677": " equipe",
    "1678": " países",
    "1679": " pan",
    "1680": " gerenc",
    "1681": " regularmente",
    "1682": " confor",
    "1683": " compos",
    "1684": " marketing",
    "1685": " opções",
    "1686": " Mo",
    "1687": " quantidade",
    "1688": " econôm",
    "1689": "jar",
    "1690": " Explique",
    "1691": "iência",
    "1692": "ex",
    "1693": " torno",
    "1694": "mail",
    "1695": " oportun",
    "1696": " dias",
    "1697": " rede",
    "1698": " conec",
    "1699": " usados",
    "1700": " precisará",
    "1701": " estrutura",
    "1702": " 0",
    "1703": "dad",
    "1704": "gas",
    "1705": " alta",
    "1706": "áss",
    "1707": "lheres",
    "1708": " Encont",
    "1709": "icamente",
    "1710": " declara",
    "1711": " Am",
    "1712": " importantes",
    "1713": " tentar",
    "1714": " noite",
    "1715": "ons",
    "1716": " seria",
    "1717": " humanos",
    "1718": " forte",
    "1719": "bra",
    "1720": "tiz",
    "1721": "net",
    "1722": " sab",
    "1723": "estão",
    "1724": "nch",
    "1725": " números",
    "1726": " Le",
    "1727": " tend",
    "1728": "ág",
    "1729": "esta",
    "1730": "ndar",
    "1731": " min",
    "1732": "000",
    "1733": " conjunto",
    "1734": " economizar",
    "1735": " men",
    "1736": "ticar",
    "1737": " espaço",
    "1738": " John",
    "1739": "ack",
    "1740": " home",
    "1741": " seguir",
    "1742": "ículo",
    "1743": " fer",
    "1744": " idio",
    "1745": " exercícios",
    "1746": "ers",
    "1747": " negócios",
    "1748": "ba",
    "1749": " lín",
    "1750": " Cl",
    "1751": "ím",
    "1752": " realmente",
    "1753": " esteja",
    "1754": " identificar",
    "1755": " carre",
    "1756": " cole",
    "1757": " fun",
    "1758": " prepara",
    "1759": " inteligência",
    "1760": " lid",
    "1761": " árvo",
    "1762": " dieta",
    "1763": " oc",
    "1764": " For",
    "1765": "tico",
    "1766": " cultura",
    "1767": " recon",
    "1768": "ícil",
    "1769": " consul",
    "1770": "taria",
    "1771": "creve",
    "1772": " considerar",
    "1773": " Fo",
    "1774": " fras",
    "1775": "xo",
    "1776": " cre",
    "1777": " nível",
    "1778": " perma",
    "1779": " loja",
    "1780": " bás",
    "1781": " pergunta",
    "1782": " sin",
    "1783": "idente",
    "1784": " cent",
    "1785": " difícil",
    "1786": "inação",
    "1787": " acordo",
    "1788": " impacto",
    "1789": " fund",
    "1790": "ológ",
    "1791": " global",
    "1792": " quei",
    "1793": " anal",
    "1794": " Mais",
    "1795": " geração",
    "1796": " Encontre",
    "1797": "ck",
    "1798": " colher",
    "1799": " US",
    "1800": " estou",
    "1801": " resol",
    "1802": " locais",
    "1803": " Comp",
    "1804": " aval",
    "1805": " Terra",
    "1806": "dução",
    "1807": "loque",
    "1808": " Pri",
    "1809": "log",
    "1810": " sistemas",
    "1811": " sido",
    "1812": " vegetais",
    "1813": " anál",
    "1814": "ndimento",
    "1815": " comuns",
    "1816": " considera",
    "1817": "tro",
    "1818": "cular",
    "1819": " ráp",
    "1820": " caminho",
    "1821": " aç",
    "1822": " técnicas",
    "1823": " necessidades",
    "1824": "tim",
    "1825": " cient",
    "1826": " sociais",
    "1827": " desaf",
    "1828": " respon",
    "1829": " livre",
    "1830": "eias",
    "1831": " estratégias",
    "1832": " construir",
    "1833": " compreensão",
    "1834": " cabe",
    "1835": "ór",
    "1836": "mal",
    "1837": "xe",
    "1838": "mentas",
    "1839": " elementos",
    "1840": "cia",
    "1841": " queijo",
    "1842": " devido",
    "1843": " entrada",
    "1844": " necessário",
    "1845": " Tra",
    "1846": " expl",
    "1847": "umir",
    "1848": " força",
    "1849": " níveis",
    "1850": " temperatura",
    "1851": " Cal",
    "1852": " saudáveis",
    "1853": "lá",
    "1854": " tenho",
    "1855": " permite",
    "1856": " gan",
    "1857": " caracter",
    "1858": "umo",
    "1859": "itivos",
    "1860": " educ",
    "1861": "arti",
    "1862": "vir",
    "1863": " alcançar",
    "1864": " Gra",
    "1865": " comunicação",
    "1866": " nut",
    "1867": "rus",
    "1868": " jog",
    "1869": "tivamente",
    "1870": "pare",
    "1871": " seguro",
    "1872": " frases",
    "1873": " gen",
    "1874": " algoritmo",
    "1875": " capacidade",
    "1876": "resso",
    "1877": " Out",
    "1878": "inhar",
    "1879": " En",
    "1880": " mens",
    "1881": "quec",
    "1882": "itiva",
    "1883": " contato",
    "1884": " estado",
    "1885": " cama",
    "1886": " alto",
    "1887": " investir",
    "1888": " exec",
    "1889": " proprie",
    "1890": "ort",
    "1891": "ísticas",
    "1892": "uais",
    "1893": " começou",
    "1894": " configu",
    "1895": " custo",
    "1896": "cem",
    "1897": " viagem",
    "1898": "oo",
    "1899": "dem",
    "1900": " baixo",
    "1901": "pec",
    "1902": "cial",
    "1903": "via",
    "1904": " automa",
    "1905": "tegor",
    "1906": " comporta",
    "1907": " ing",
    "1908": " metas",
    "1909": "atro",
    "1910": " 12",
    "1911": " solar",
    "1912": "ntura",
    "1913": " descob",
    "1914": " taman",
    "1915": " promo",
    "1916": " tro",
    "1917": " disponíveis",
    "1918": " despes",
    "1919": " profissional",
    "1920": " lí",
    "1921": " crianças",
    "1922": " quanto",
    "1923": " falar",
    "1924": " desenvolver",
    "1925": "imentos",
    "1926": " arqu",
    "1927": " artificial",
    "1928": " escrever",
    "1929": " novas",
    "1930": "úst",
    "1931": " açú",
    "1932": " custos",
    "1933": " vai",
    "1934": "cred",
    "1935": " conclu",
    "1936": "bora",
    "1937": " represent",
    "1938": " análise",
    "1939": " situação",
    "1940": " poe",
    "1941": "ibilidade",
    "1942": " sopa",
    "1943": "ona",
    "1944": " aplicativo",
    "1945": " compara",
    "1946": "tring",
    "1947": " física",
    "1948": " aber",
    "1949": "iores",
    "1950": "esa",
    "1951": "ticas",
    "1952": " despesas",
    "1953": " final",
    "1954": " detal",
    "1955": " Rees",
    "1956": " dada",
    "1957": "tamento",
    "1958": " pu",
    "1959": "par",
    "1960": "ética",
    "1961": "ést",
    "1962": " cuidad",
    "1963": " sites",
    "1964": " comparti",
    "1965": " depende",
    "1966": " use",
    "1967": "tividade",
    "1968": "ído",
    "1969": " outra",
    "1970": " populares",
    "1971": " assoc",
    "1972": " z",
    "1973": " docu",
    "1974": " nunca",
    "1975": " língua",
    "1976": " serviço",
    "1977": " saber",
    "1978": " entanto",
    "1979": " reno",
    "1980": " projeto",
    "1981": " produz",
    "1982": "neça",
    "1983": " capaz",
    "1984": " praticar",
    "1985": " eficiente",
    "1986": " arte",
    "1987": " depois",
    "1988": " frutas",
    "1989": " Pa",
    "1990": " mudança",
    "1991": " mon",
    "1992": " pág",
    "1993": " coloc",
    "1994": " fatores",
    "1995": " dentro",
    "1996": " av",
    "1997": " ori",
    "1998": " linha",
    "1999": "fé",
    "2000": " compu",
    "2001": "nciamento",
    "2002": " procurando",
    "2003": "arece",
    "2004": " bar",
    "2005": " média",
    "2006": " fora",
    "2007": " confia",
    "2008": " sendo",
    "2009": " usa",
    "2010": " transporte",
    "2011": " usuários",
    "2012": "ixo",
    "2013": " termos",
    "2014": " óleo",
    "2015": "19",
    "2016": " efeitos",
    "2017": "arn",
    "2018": " facil",
    "2019": " apropri",
    "2020": " leg",
    "2021": " aba",
    "2022": " sufic",
    "2023": " aplicativos",
    "2024": " flu",
    "2025": " futu",
    "2026": " desempenho",
    "2027": " equil",
    "2028": " fonte",
    "2029": " ovos",
    "2030": "étr",
    "2031": " estima",
    "2032": " mistura",
    "2033": " ler",
    "2034": " receita",
    "2035": " ferramentas",
    "2036": " telef",
    "2037": " compras",
    "2038": "istente",
    "2039": " verificar",
    "2040": "velmente",
    "2041": " Sa",
    "2042": " lem",
    "2043": " experimental",
    "2044": " partir",
    "2045": " refei",
    "2046": " detalh",
    "2047": "çã",
    "2048": " opera",
    "2049": " mental",
    "2050": " web",
    "2051": " not",
    "2052": " açúcar",
    "2053": " áreas",
    "2054": "pas",
    "2055": " nosso",
    "2056": "icul",
    "2057": " 15",
    "2058": " atual",
    "2059": " autor",
    "2060": "ores",
    "2061": " lan",
    "2062": " resultados",
    "2063": " após",
    "2064": " gre",
    "2065": "lhões",
    "2066": "xas",
    "2067": " sejam",
    "2068": " rele",
    "2069": " procurar",
    "2070": "mir",
    "2071": " afe",
    "2072": "rica",
    "2073": "éci",
    "2074": "20",
    "2075": "ire",
    "2076": " popular",
    "2077": " indúst",
    "2078": "ressa",
    "2079": " Ja",
    "2080": " prazo",
    "2081": " inst",
    "2082": " Prime",
    "2083": "itam",
    "2084": "ham",
    "2085": " peso",
    "2086": " atualiz",
    "2087": "mana",
    "2088": " rob",
    "2089": " resposta",
    "2090": " acho",
    "2091": " fres",
    "2092": " grupo",
    "2093": " tradicion",
    "2094": " quad",
    "2095": " Cons",
    "2096": " eletr",
    "2097": "ulas",
    "2098": "iado",
    "2099": " famil",
    "2100": "ple",
    "2101": " far",
    "2102": " Dê",
    "2103": " padrões",
    "2104": "orn",
    "2105": " indivídu",
    "2106": " tamanho",
    "2107": "melha",
    "2108": " título",
    "2109": " Há",
    "2110": "fo",
    "2111": " campo",
    "2112": " médio",
    "2113": " interess",
    "2114": " devo",
    "2115": " plata",
    "2116": " X",
    "2117": " continu",
    "2118": " Adicion",
    "2119": "tion",
    "2120": " fim",
    "2121": "rin",
    "2122": " potenciais",
    "2123": " Sim",
    "2124": "imos",
    "2125": "ient",
    "2126": " materiais",
    "2127": "ork",
    "2128": " declaração",
    "2129": " america",
    "2130": " cores",
    "2131": " cos",
    "2132": " jard",
    "2133": " Guerra",
    "2134": " século",
    "2135": "zer",
    "2136": " pesquisar",
    "2137": " releva",
    "2138": " medida",
    "2139": " juntos",
    "2140": "vida",
    "2141": " doenças",
    "2142": " Á",
    "2143": " decisões",
    "2144": " movimento",
    "2145": " total",
    "2146": " tarefa",
    "2147": "tido",
    "2148": "ante",
    "2149": " créd",
    "2150": "ndem",
    "2151": " Reescreva",
    "2152": " sele",
    "2153": "ana",
    "2154": " educação",
    "2155": " céu",
    "2156": " organiz",
    "2157": " brilha",
    "2158": "dores",
    "2159": " perí",
    "2160": "arning",
    "2161": "tec",
    "2162": "ton",
    "2163": " resolver",
    "2164": " franc",
    "2165": "cionais",
    "2166": " atendimento",
    "2167": "stre",
    "2168": "ps",
    "2169": " esses",
    "2170": "ris",
    "2171": "ânt",
    "2172": " Nomeie",
    "2173": " oferece",
    "2174": " proteger",
    "2175": " ponto",
    "2176": " ideia",
    "2177": "ticos",
    "2178": " veloc",
    "2179": "chave",
    "2180": " quente",
    "2181": " sinto",
    "2182": " caminh",
    "2183": "iáveis",
    "2184": "brar",
    "2185": " hoje",
    "2186": " poema",
    "2187": "ndida",
    "2188": " café",
    "2189": " câ",
    "2190": " y",
    "2191": " nave",
    "2192": " manteiga",
    "2193": " algum",
    "2194": " ajust",
    "2195": " espéci",
    "2196": " eventos",
    "2197": " oportunidades",
    "2198": "iados",
    "2199": " ampla",
    "2200": "ice",
    "2201": " quatro",
    "2202": " Ne",
    "2203": " atividade",
    "2204": " alunos",
    "2205": "eral",
    "2206": " retor",
    "2207": " personaliz",
    "2208": " acred",
    "2209": " Algumas",
    "2210": "fera",
    "2211": " fazendo",
    "2212": " permanec",
    "2213": " estudo",
    "2214": " Class",
    "2215": "com",
    "2216": " prova",
    "2217": " novos",
    "2218": " Ao",
    "2219": " estre",
    "2220": " string",
    "2221": " passo",
    "2222": " já",
    "2223": " trabalhar",
    "2224": " cen",
    "2225": "cio",
    "2226": " ado",
    "2227": " carb",
    "2228": " série",
    "2229": " incent",
    "2230": " respo",
    "2231": " sur",
    "2232": "ivas",
    "2233": " ave",
    "2234": " renov",
    "2235": "gora",
    "2236": " der",
    "2237": "icidade",
    "2238": " métodos",
    "2239": " pequena",
    "2240": " vem",
    "2241": "pre",
    "2242": "tbo",
    "2243": "dap",
    "2244": " eram",
    "2245": " programas",
    "2246": " estratégia",
    "2247": " impostos",
    "2248": "ale",
    "2249": " crescimento",
    "2250": "hos",
    "2251": " controle",
    "2252": " Bo",
    "2253": " ace",
    "2254": "tureza",
    "2255": " mó",
    "2256": " col",
    "2257": " economia",
    "2258": "iras",
    "2259": " nor",
    "2260": " roma",
    "2261": "oria",
    "2262": " curr",
    "2263": " substitu",
    "2264": " exc",
    "2265": " vir",
    "2266": " estabele",
    "2267": " perío",
    "2268": " Nova",
    "2269": " polu",
    "2270": "ke",
    "2271": " diver",
    "2272": " extra",
    "2273": " renda",
    "2274": " moder",
    "2275": "issões",
    "2276": "gira",
    "2277": " suficiente",
    "2278": " futuro",
    "2279": "tur",
    "2280": " otim",
    "2281": "lex",
    "2282": " orig",
    "2283": "ráf",
    "2284": "bro",
    "2285": " rápido",
    "2286": " ed",
    "2287": " Alguns",
    "2288": " discu",
    "2289": " clara",
    "2290": " personagem",
    "2291": " decid",
    "2292": "ângu",
    "2293": "ten",
    "2294": " atmos",
    "2295": " entrev",
    "2296": " ocorre",
    "2297": "jas",
    "2298": " determinado",
    "2299": " ge",
    "2300": " chatbo",
    "2301": " fornece",
    "2302": " desde",
    "2303": " Ver",
    "2304": " mant",
    "2305": " feito",
    "2306": " espera",
    "2307": " pimenta",
    "2308": "ceis",
    "2309": " Identifique",
    "2310": " Adicione",
    "2311": " dem",
    "2312": " solução",
    "2313": " chamada",
    "2314": " cão",
    "2315": " crédito",
    "2316": "rais",
    "2317": " explorar",
    "2318": " víde",
    "2319": " computação",
    "2320": " memb",
    "2321": "tão",
    "2322": "plo",
    "2323": " mem",
    "2324": " permitindo",
    "2325": " usadas",
    "2326": " preços",
    "2327": "gn",
    "2328": " flore",
    "2329": " relax",
    "2330": " cola",
    "2331": " dado",
    "2332": " fel",
    "2333": "erva",
    "2334": " só",
    "2335": "iversidade",
    "2336": " conceito",
    "2337": " avan",
    "2338": " animal",
    "2339": "orda",
    "2340": " li",
    "2341": " precisão",
    "2342": " Depois",
    "2343": " significado",
    "2344": " comportamento",
    "2345": " contribu",
    "2346": "quência",
    "2347": " massa",
    "2348": " regist",
    "2349": " taxa",
    "2350": " esfor",
    "2351": " natureza",
    "2352": " resultado",
    "2353": " carbono",
    "2354": " ideias",
    "2355": "grafia",
    "2356": " gerenciar",
    "2357": "has",
    "2358": " tornando",
    "2359": "ocion",
    "2360": "visão",
    "2361": " Ho",
    "2362": " sono",
    "2363": "uções",
    "2364": " adap",
    "2365": " Dada",
    "2366": " bata",
    "2367": " desej",
    "2368": " exig",
    "2369": " características",
    "2370": " matem",
    "2371": "ixa",
    "2372": " blog",
    "2373": " Foi",
    "2374": " ambient",
    "2375": "ill",
    "2376": "ioso",
    "2377": " concentrar",
    "2378": " momento",
    "2379": " valores",
    "2380": "hã",
    "2381": " Pe",
    "2382": " semana",
    "2383": " bus",
    "2384": " maioria",
    "2385": "ória",
    "2386": " exercício",
    "2387": " online",
    "2388": " comida",
    "2389": " influ",
    "2390": " il",
    "2391": " conhecimento",
    "2392": "teza",
    "2393": " import",
    "2394": "rados",
    "2395": " objetivo",
    "2396": " cir",
    "2397": "ht",
    "2398": "tante",
    "2399": "ase",
    "2400": " suave",
    "2401": " homem",
    "2402": "âm",
    "2403": "su",
    "2404": " passos",
    "2405": "ry",
    "2406": " intera",
    "2407": " beb",
    "2408": " hor",
    "2409": " nega",
    "2410": " tudo",
    "2411": " adicionar",
    "2412": " fala",
    "2413": " limpar",
    "2414": " eng",
    "2415": " função",
    "2416": "inamento",
    "2417": " cro",
    "2418": " velocidade",
    "2419": " estiver",
    "2420": " investimento",
    "2421": " comum",
    "2422": " escu",
    "2423": "crição",
    "2424": "eixe",
    "2425": " útil",
    "2426": " mídia",
    "2427": " amigo",
    "2428": "terna",
    "2429": "ritân",
    "2430": " Inter",
    "2431": " telefone",
    "2432": " Desenvol",
    "2433": "tiliz",
    "2434": " indústria",
    "2435": "amente",
    "2436": " vant",
    "2437": " ofer",
    "2438": "lio",
    "2439": " atmosfera",
    "2440": " Classifique",
    "2441": " perto",
    "2442": " sens",
    "2443": " determinar",
    "2444": " gerar",
    "2445": " prog",
    "2446": "tá",
    "2447": " essas",
    "2448": " decisão",
    "2449": "istência",
    "2450": " ame",
    "2451": "asse",
    "2452": " horas",
    "2453": " paus",
    "2454": " máx",
    "2455": " ban",
    "2456": " jogos",
    "2457": "back",
    "2458": " refer",
    "2459": " escolher",
    "2460": " k",
    "2461": " rápida",
    "2462": " definir",
    "2463": " página",
    "2464": " elétr",
    "2465": "eio",
    "2466": " agora",
    "2467": "tou",
    "2468": " ação",
    "2469": "ph",
    "2470": " Existem",
    "2471": "dades",
    "2472": " ótima",
    "2473": "cean",
    "2474": "oga",
    "2475": " especial",
    "2476": " The",
    "2477": " redor",
    "2478": " teste",
    "2479": " sust",
    "2480": " efeito",
    "2481": " alguma",
    "2482": " mor",
    "2483": " climáticas",
    "2484": "ren",
    "2485": " ans",
    "2486": "mentação",
    "2487": "rimento",
    "2488": "osos",
    "2489": " filmes",
    "2490": " cozinhar",
    "2491": " apresentação",
    "2492": " preço",
    "2493": " necessários",
    "2494": " sen",
    "2495": " respira",
    "2496": " sustent",
    "2497": " ordem",
    "2498": " funda",
    "2499": " coisa",
    "2500": " currículo",
    "2501": " chatbot",
    "2502": " faça",
    "2503": "issão",
    "2504": " analis",
    "2505": " Consid",
    "2506": " mont",
    "2507": " receitas",
    "2508": " combust",
    "2509": " reun",
    "2510": " candida",
    "2511": " envolver",
    "2512": " precisar",
    "2513": " espanh",
    "2514": " jardim",
    "2515": " inde",
    "2516": " importância",
    "2517": "ray",
    "2518": " tar",
    "2519": " apoio",
    "2520": "mit",
    "2521": "bol",
    "2522": " partes",
    "2523": " treinamento",
    "2524": " investimentos",
    "2525": "iável",
    "2526": "culas",
    "2527": " modelos",
    "2528": " gor",
    "2529": "ste",
    "2530": " aprove",
    "2531": " molho",
    "2532": "tina",
    "2533": " sentir",
    "2534": " Parece",
    "2535": " sabor",
    "2536": " maçã",
    "2537": " Constru",
    "2538": "tis",
    "2539": " remover",
    "2540": " respe",
    "2541": " ouvir",
    "2542": " carros",
    "2543": " ante",
    "2544": "izagem",
    "2545": " rastre",
    "2546": " integra",
    "2547": " tendências",
    "2548": " part",
    "2549": " relação",
    "2550": "tique",
    "2551": " fé",
    "2552": " exce",
    "2553": " orient",
    "2554": "vid",
    "2555": " interessa",
    "2556": " gato",
    "2557": " idioma",
    "2558": " fundo",
    "2559": " Ed",
    "2560": " prática",
    "2561": " essa",
    "2562": " motor",
    "2563": " escolha",
    "2564": " instruções",
    "2565": " emocion",
    "2566": " exa",
    "2567": " raz",
    "2568": " quar",
    "2569": " detec",
    "2570": " erros",
    "2571": " Or",
    "2572": " presidente",
    "2573": " tópico",
    "2574": " será",
    "2575": "riar",
    "2576": " dom",
    "2577": " dê",
    "2578": " Considere",
    "2579": " inv",
    "2580": " crie",
    "2581": "íp",
    "2582": " sug",
    "2583": "heça",
    "2584": " perfe",
    "2585": " ext",
    "2586": " argu",
    "2587": " pais",
    "2588": " escrita",
    "2589": " cozinha",
    "2590": "iação",
    "2591": " meno",
    "2592": " única",
    "2593": "ífica",
    "2594": " compon",
    "2595": " cuid",
    "2596": " Onde",
    "2597": " igu",
    "2598": " certeza",
    "2599": " lent",
    "2600": " paci",
    "2601": " lá",
    "2602": " Do",
    "2603": "stico",
    "2604": " pelos",
    "2605": " visão",
    "2606": "dio",
    "2607": " individ",
    "2608": "edback",
    "2609": " existem",
    "2610": "50",
    "2611": " menores",
    "2612": " funcionários",
    "2613": " atenção",
    "2614": " jorn",
    "2615": " termo",
    "2616": "ques",
    "2617": " poluição",
    "2618": "irma",
    "2619": "tros",
    "2620": " único",
    "2621": " programação",
    "2622": " material",
    "2623": " fran",
    "2624": "inham",
    "2625": " alho",
    "2626": "blica",
    "2627": " estavam",
    "2628": " população",
    "2629": "olas",
    "2630": " começa",
    "2631": "cente",
    "2632": " acomp",
    "2633": " lei",
    "2634": "rom",
    "2635": " imagens",
    "2636": " nossa",
    "2637": "inhe",
    "2638": " vegan",
    "2639": " aprendizagem",
    "2640": " feedback",
    "2641": "ângulo",
    "2642": " Ba",
    "2643": " ama",
    "2644": " política",
    "2645": "dias",
    "2646": " objetos",
    "2647": " amor",
    "2648": " seres",
    "2649": "leta",
    "2650": " Rec",
    "2651": " mer",
    "2652": "lês",
    "2653": " pessoais",
    "2654": " solo",
    "2655": " pequeno",
    "2656": " Quant",
    "2657": "volução",
    "2658": "tam",
    "2659": " end",
    "2660": " Primeiro",
    "2661": " So",
    "2662": " Sugira",
    "2663": " prato",
    "2664": " virtu",
    "2665": "orpo",
    "2666": " divid",
    "2667": "ícias",
    "2668": " 17",
    "2669": "ndial",
    "2670": "estar",
    "2671": "áticos",
    "2672": " direitos",
    "2673": " adequada",
    "2674": " verão",
    "2675": "cule",
    "2676": " período",
    "2677": " conhecido",
    "2678": " ensa",
    "2679": " condições",
    "2680": " tente",
    "2681": "icado",
    "2682": " ri",
    "2683": " bi",
    "2684": " milhões",
    "2685": " China",
    "2686": "tri",
    "2687": " forno",
    "2688": "çado",
    "2689": " formas",
    "2690": "ança",
    "2691": " mul",
    "2692": " soluções",
    "2693": "ins",
    "2694": " pré",
    "2695": " idade",
    "2696": " diferenças",
    "2697": " explicar",
    "2698": "gumes",
    "2699": " lidar",
    "2700": " algoritmos",
    "2701": " humano",
    "2702": " sintomas",
    "2703": " Euro",
    "2704": "estões",
    "2705": " preciso",
    "2706": " normal",
    "2707": " extre",
    "2708": " escreve",
    "2709": " lig",
    "2710": "pet",
    "2711": " Lo",
    "2712": " gostaria",
    "2713": " pão",
    "2714": "pend",
    "2715": " medidas",
    "2716": "alha",
    "2717": " compra",
    "2718": " sala",
    "2719": " branco",
    "2720": " envi",
    "2721": " recomp",
    "2722": " carne",
    "2723": " britân",
    "2724": " meus",
    "2725": "tório",
    "2726": " pessoal",
    "2727": " execut",
    "2728": " tur",
    "2729": " Inc",
    "2730": "late",
    "2731": " conex",
    "2732": " possíveis",
    "2733": "ães",
    "2734": "rito",
    "2735": "iões",
    "2736": " riscos",
    "2737": " guerra",
    "2738": " enfre",
    "2739": " dep",
    "2740": " aquecimento",
    "2741": " próximo",
    "2742": " naturais",
    "2743": " profunda",
    "2744": " termin",
    "2745": " Car",
    "2746": " digital",
    "2747": " tig",
    "2748": " possam",
    "2749": " automatiz",
    "2750": "br",
    "2751": " evento",
    "2752": " categor",
    "2753": "iram",
    "2754": " gordu",
    "2755": "gado",
    "2756": " int",
    "2757": " lapto",
    "2758": "tada",
    "2759": " causa",
    "2760": "Warning",
    "2761": " semelha",
    "2762": "istir",
    "2763": " quím",
    "2764": "iminu",
    "2765": " meditação",
    "2766": " pele",
    "2767": " tinham",
    "2768": " maiores",
    "2769": " 11",
    "2770": " certo",
    "2771": " bolo",
    "2772": "cionar",
    "2773": " quere",
    "2774": " Ob",
    "2775": "gares",
    "2776": " leite",
    "2777": " intro",
    "2778": " gên",
    "2779": " bater",
    "2780": " delic",
    "2781": " pelas",
    "2782": " aconte",
    "2783": "volu",
    "2784": " fotos",
    "2785": " obs",
    "2786": "radas",
    "2787": " Can",
    "2788": " notícias",
    "2789": " oferecem",
    "2790": "ones",
    "2791": " dormir",
    "2792": " sociedade",
    "2793": " legumes",
    "2794": " mente",
    "2795": " espanhol",
    "2796": "yth",
    "2797": " leve",
    "2798": " fortes",
    "2799": " Pla",
    "2800": " confort",
    "2801": "upas",
    "2802": "vado",
    "2803": " teve",
    "2804": " capazes",
    "2805": " perda",
    "2806": " medo",
    "2807": " armazenar",
    "2808": " chu",
    "2809": " emo",
    "2810": " estran",
    "2811": " inve",
    "2812": "aran",
    "2813": " emissões",
    "2814": " lugares",
    "2815": " pará",
    "2816": " promover",
    "2817": " eficiência",
    "2818": " nutri",
    "2819": " médico",
    "2820": " Esco",
    "2821": " roupas",
    "2822": " Da",
    "2823": " sente",
    "2824": " plá",
    "2825": " diminu",
    "2826": " superf",
    "2827": " exemplos",
    "2828": " particip",
    "2829": " azul",
    "2830": " respons",
    "2831": " dispositivos",
    "2832": " banco",
    "2833": " ganhar",
    "2834": " leis",
    "2835": " 200",
    "2836": " York",
    "2837": " camp",
    "2838": " relevantes",
    "2839": " crime",
    "2840": " superfíci",
    "2841": " regulares",
    "2842": " gerenciamento",
    "2843": " férias",
    "2844": " computadores",
    "2845": " peças",
    "2846": " Mas",
    "2847": " panela",
    "2848": " filho",
    "2849": " inclui",
    "2850": " caso",
    "2851": " tornou",
    "2852": " entrar",
    "2853": " detalhes",
    "2854": " estimação",
    "2855": " enc",
    "2856": " 30",
    "2857": "inos",
    "2858": " ja",
    "2859": " peda",
    "2860": " taxas",
    "2861": " refeições",
    "2862": "rést",
    "2863": " chegar",
    "2864": " subst",
    "2865": " frango",
    "2866": " apos",
    "2867": " mus",
    "2868": " express",
    "2869": " dema",
    "2870": "esse",
    "2871": " colheres",
    "2872": " descobrir",
    "2873": " processamento",
    "2874": " publ",
    "2875": " graus",
    "2876": " recomendar",
    "2877": " ros",
    "2878": "aria",
    "2879": " emprést",
    "2880": " ciência",
    "2881": "érica",
    "2882": " Pes",
    "2883": "mine",
    "2884": " mídias",
    "2885": " agra",
    "2886": " usam",
    "2887": " vent",
    "2888": " hora",
    "2889": "anças",
    "2890": " criação",
    "2891": " Grande",
    "2892": " sim",
    "2893": "itando",
    "2894": " flex",
    "2895": " opin",
    "2896": " provavelmente",
    "2897": " Depende",
    "2898": " componentes",
    "2899": "grafo",
    "2900": "erg",
    "2901": " Conheça",
    "2902": " sentimento",
    "2903": "gente",
    "2904": "ceu",
    "2905": " son",
    "2906": " máximo",
    "2907": "ndia",
    "2908": "ly",
    "2909": " Fra",
    "2910": " internet",
    "2911": " vive",
    "2912": " pagamento",
    "2913": " início",
    "2914": "ython",
    "2915": " La",
    "2916": "jamento",
    "2917": " visitar",
    "2918": " capital",
    "2919": "tt",
    "2920": " árvore",
    "2921": " Def",
    "2922": " idé",
    "2923": "gle",
    "2924": " carreira",
    "2925": " espécies",
    "2926": "oca",
    "2927": "nia",
    "2928": "logia",
    "2929": " permanecer",
    "2930": " mulheres",
    "2931": " lib",
    "2932": " sel",
    "2933": " menor",
    "2934": " Dado",
    "2935": " presente",
    "2936": "ático",
    "2937": " Ent",
    "2938": "ok",
    "2939": " afirma",
    "2940": " histór",
    "2941": "antar",
    "2942": "teis",
    "2943": " opção",
    "2944": " cuidados",
    "2945": " precisam",
    "2946": " mol",
    "2947": " Anal",
    "2948": "eram",
    "2949": " manhã",
    "2950": " déc",
    "2951": " ur",
    "2952": " árvores",
    "2953": " pontu",
    "2954": " gr",
    "2955": " 16",
    "2956": " Esp",
    "2957": " adicione",
    "2958": " querer",
    "2959": " verde",
    "2960": "itado",
    "2961": " cidades",
    "2962": " objeto",
    "2963": " posição",
    "2964": " dispositivo",
    "2965": "ile",
    "2966": " ensaio",
    "2967": "ash",
    "2968": "vio",
    "2969": " foc",
    "2970": "ocolate",
    "2971": " busca",
    "2972": " recompens",
    "2973": " feliz",
    "2974": " elas",
    "2975": " responder",
    "2976": " banc",
    "2977": "isa",
    "2978": " produção",
    "2979": " voz",
    "2980": " Ale",
    "2981": " sentimentos",
    "2982": " sou",
    "2983": " test",
    "2984": " aument",
    "2985": " Era",
    "2986": " freque",
    "2987": " equilib",
    "2988": "int",
    "2989": " entrevista",
    "2990": " hos",
    "2991": " pó",
    "2992": "mática",
    "2993": "ervar",
    "2994": " confiança",
    "2995": " doc",
    "2996": "inado",
    "2997": " positivo",
    "2998": " pen",
    "2999": "íg",
    "3000": " Resumir",
    "3001": " descrição",
    "3002": "idão",
    "3003": " Apple",
    "3004": " contas",
    "3005": " experiências",
    "3006": "anhas",
    "3007": "ênio",
    "3008": " oferecer",
    "3009": " diferente",
    "3010": " completamente",
    "3011": " renováveis",
    "3012": "antes",
    "3013": "aros",
    "3014": " Coloque",
    "3015": " porta",
    "3016": " gráf",
    "3017": " tópicos",
    "3018": " alte",
    "3019": " viv",
    "3020": "10",
    "3021": " clima",
    "3022": " poup",
    "3023": " passar",
    "3024": "erior",
    "3025": " descrever",
    "3026": "vada",
    "3027": " escola",
    "3028": " farinha",
    "3029": "ww",
    "3030": "cula",
    "3031": " consumo",
    "3032": " jantar",
    "3033": " necessárias",
    "3034": " laptop",
    "3035": " mesma",
    "3036": " instal",
    "3037": " apare",
    "3038": " cláss",
    "3039": " verdade",
    "3040": " fis",
    "3041": " aze",
    "3042": "ncer",
    "3043": " pequenas",
    "3044": "isco",
    "3045": " sob",
    "3046": " frente",
    "3047": "son",
    "3048": " indivíduos",
    "3049": "iano",
    "3050": " próprio",
    "3051": " assu",
    "3052": " separa",
    "3053": " most",
    "3054": "ório",
    "3055": " profissionais",
    "3056": " pintura",
    "3057": " pressão",
    "3058": " floresta",
    "3059": " ata",
    "3060": " 100",
    "3061": " comprimento",
    "3062": " carta",
    "3063": " Z",
    "3064": " certos",
    "3065": " ale",
    "3066": " mim",
    "3067": "grama",
    "3068": " França",
    "3069": "cle",
    "3070": " organização",
    "3071": " form",
    "3072": " inglês",
    "3073": " vitam",
    "3074": " prior",
    "3075": " ambos",
    "3076": " satis",
    "3077": " cober",
    "3078": " plataforma",
    "3079": " desta",
    "3080": " item",
    "3081": " essenciais",
    "3082": " Pesquis",
    "3083": " nós",
    "3084": "istentes",
    "3085": " motiv",
    "3086": " mês",
    "3087": " hab",
    "3088": " móveis",
    "3089": "ik",
    "3090": "ntou",
    "3091": " desenvolve",
    "3092": " imagem",
    "3093": " Goo",
    "3094": " respiração",
    "3095": " funciona",
    "3096": " Segu",
    "3097": " processos",
    "3098": "ósito",
    "3099": " cabeça",
    "3100": " grama",
    "3101": " equação",
    "3102": " permitir",
    "3103": " teoria",
    "3104": " morre",
    "3105": " aleg",
    "3106": " minhas",
    "3107": " aborda",
    "3108": " vantagens",
    "3109": " Per",
    "3110": " jan",
    "3111": " primeiros",
    "3112": " hid",
    "3113": " eficientes",
    "3114": " corretamente",
    "3115": "perar",
    "3116": " consci",
    "3117": " acab",
    "3118": " reconhec",
    "3119": " alterna",
    "3120": " complex",
    "3121": " torná",
    "3122": " preparar",
    "3123": " acha",
    "3124": " resolu",
    "3125": " comece",
    "3126": " falta",
    "3127": " dificul",
    "3128": " humana",
    "3129": " práticas",
    "3130": " restaurante",
    "3131": "ink",
    "3132": " baixa",
    "3133": "ome",
    "3134": " redes",
    "3135": " robô",
    "3136": " progresso",
    "3137": " vendas",
    "3138": " endere",
    "3139": "iana",
    "3140": " pagar",
    "3141": "ículos",
    "3142": "deira",
    "3143": " facilmente",
    "3144": " princ",
    "3145": " chocolate",
    "3146": " naveg",
    "3147": " tip",
    "3148": "enha",
    "3149": " cora",
    "3150": "enc",
    "3151": "ismos",
    "3152": "ipo",
    "3153": " mudar",
    "3154": " imple",
    "3155": "osas",
    "3156": " ocean",
    "3157": " tal",
    "3158": " pausas",
    "3159": " rotina",
    "3160": " eletrôn",
    "3161": " vírus",
    "3162": " Construa",
    "3163": " toda",
    "3164": " Sal",
    "3165": " nuvem",
    "3166": "ínio",
    "3167": " foco",
    "3168": " tecnologias",
    "3169": " direito",
    "3170": " páss",
    "3171": " ben",
    "3172": " matemática",
    "3173": " causar",
    "3174": " Imp",
    "3175": " adequado",
    "3176": " fundos",
    "3177": " linhas",
    "3178": " financeira",
    "3179": " agr",
    "3180": " brin",
    "3181": "by",
    "3182": "igh",
    "3183": " vou",
    "3184": " olhar",
    "3185": " Mic",
    "3186": " cripto",
    "3187": " terra",
    "3188": " analisar",
    "3189": " Mundial",
    "3190": " acompan",
    "3191": "ódio",
    "3192": "ôme",
    "3193": " jovem",
    "3194": " tipicamente",
    "3195": " resolução",
    "3196": " planejar",
    "3197": " quero",
    "3198": " armazenamento",
    "3199": " documentos",
    "3200": " tigela",
    "3201": " dependendo",
    "3202": " Criar",
    "3203": " prefer",
    "3204": " emerg",
    "3205": " soma",
    "3206": " volta",
    "3207": " gastos",
    "3208": " coração",
    "3209": " levando",
    "3210": "ila",
    "3211": "ndos",
    "3212": " fez",
    "3213": " própria",
    "3214": "érc",
    "3215": " Certamente",
    "3216": " interna",
    "3217": " essencial",
    "3218": " saída",
    "3219": " passado",
    "3220": " organizar",
    "3221": " rest",
    "3222": "cent",
    "3223": " questão",
    "3224": "100",
    "3225": " gosta",
    "3226": "enhar",
    "3227": " ino",
    "3228": " tema",
    "3229": "xim",
    "3230": "ames",
    "3231": " ofertas",
    "3232": " sei",
    "3233": " estudar",
    "3234": " distância",
    "3235": "iares",
    "3236": " alcanç",
    "3237": " lar",
    "3238": " inver",
    "3239": " batatas",
    "3240": "hou",
    "3241": " faço",
    "3242": " partí",
    "3243": " parque",
    "3244": " temperaturas",
    "3245": " deco",
    "3246": " recu",
    "3247": " monito",
    "3248": " som",
    "3249": " lev",
    "3250": "íb",
    "3251": "inhos",
    "3252": " eta",
    "3253": " parágrafo",
    "3254": " determinada",
    "3255": " frequentemente",
    "3256": " foto",
    "3257": " políticas",
    "3258": " regula",
    "3259": " trabalh",
    "3260": "éis",
    "3261": " í",
    "3262": "itais",
    "3263": " romance",
    "3264": " camada",
    "3265": " recomend",
    "3266": " correta",
    "3267": "ificações",
    "3268": " planeta",
    "3269": " Au",
    "3270": " nenh",
    "3271": " flores",
    "3272": " curso",
    "3273": "xima",
    "3274": " havia",
    "3275": "arra",
    "3276": " pensar",
    "3277": " cic",
    "3278": "ército",
    "3279": " divers",
    "3280": " exter",
    "3281": " sus",
    "3282": " GP",
    "3283": " fic",
    "3284": " abri",
    "3285": " confl",
    "3286": " Pra",
    "3287": "vens",
    "3288": " Precis",
    "3289": " jogar",
    "3290": " aposent",
    "3291": " frequência",
    "3292": " iniciar",
    "3293": " num",
    "3294": " Google",
    "3295": " muita",
    "3296": " conselhos",
    "3297": "roz",
    "3298": " contém",
    "3299": " membros",
    "3300": " Escolha",
    "3301": " trabalha",
    "3302": " limpe",
    "3303": " suporte",
    "3304": " superfície",
    "3305": " perigos",
    "3306": " Franc",
    "3307": " mal",
    "3308": " responsa",
    "3309": " dura",
    "3310": " longa",
    "3311": " laran",
    "3312": " cru",
    "3313": " liber",
    "3314": " estrelas",
    "3315": " propor",
    "3316": "essor",
    "3317": " abaixo",
    "3318": " confortável",
    "3319": "icic",
    "3320": " propriedade",
    "3321": "ério",
    "3322": " União",
    "3323": "ndações",
    "3324": "ive",
    "3325": " Inte",
    "3326": "jud",
    "3327": " Pode",
    "3328": " negoc",
    "3329": " última",
    "3330": " Tente",
    "3331": "fu",
    "3332": " Har",
    "3333": " inicia",
    "3334": "alização",
    "3335": " bené",
    "3336": " 201",
    "3337": "gân",
    "3338": " desafios",
    "3339": " et",
    "3340": " relig",
    "3341": "sar",
    "3342": "ína",
    "3343": "adoria",
    "3344": " hum",
    "3345": " prov",
    "3346": " assim",
    "3347": " just",
    "3348": " avaliar",
    "3349": " América",
    "3350": " mú",
    "3351": " solic",
    "3352": " restaura",
    "3353": " armas",
    "3354": "nceiros",
    "3355": " combinação",
    "3356": " fec",
    "3357": "ndendo",
    "3358": " univers",
    "3359": " perspec",
    "3360": "rida",
    "3361": " bre",
    "3362": " Sul",
    "3363": " deixe",
    "3364": "rup",
    "3365": " ansiedade",
    "3366": " Ta",
    "3367": " nossas",
    "3368": " centro",
    "3369": " descon",
    "3370": " estejam",
    "3371": " quem",
    "3372": " madeira",
    "3373": " descontos",
    "3374": " gênero",
    "3375": " personagens",
    "3376": " Liste",
    "3377": "minist",
    "3378": " bicic",
    "3379": "queça",
    "3380": " consegu",
    "3381": " bal",
    "3382": " financeiros",
    "3383": " bol",
    "3384": "eses",
    "3385": " claro",
    "3386": " pontuação",
    "3387": "di",
    "3388": " relacionamentos",
    "3389": " positiva",
    "3390": " lojas",
    "3391": " Edite",
    "3392": "iosa",
    "3393": "cido",
    "3394": " Meu",
    "3395": " marca",
    "3396": " chave",
    "3397": " bio",
    "3398": " recic",
    "3399": " Europa",
    "3400": " xícaras",
    "3401": "ld",
    "3402": " específico",
    "3403": " passe",
    "3404": "idores",
    "3405": " mostra",
    "3406": " Forneça",
    "3407": " Ad",
    "3408": " impul",
    "3409": " escrit",
    "3410": " orgân",
    "3411": " aproxima",
    "3412": " festa",
    "3413": " mensagem",
    "3414": " data",
    "3415": " igual",
    "3416": " familiares",
    "3417": " Python",
    "3418": " criando",
    "3419": "col",
    "3420": " disse",
    "3421": " cometer",
    "3422": " logo",
    "3423": " tradicionais",
    "3424": " gatos",
    "3425": " 196",
    "3426": " Ha",
    "3427": " adicionais",
    "3428": " bara",
    "3429": "pt",
    "3430": " ating",
    "3431": "Você",
    "3432": "bos",
    "3433": " mão",
    "3434": " além",
    "3435": "ocar",
    "3436": " Nacional",
    "3437": " temp",
    "3438": "ua",
    "3439": " amea",
    "3440": " parece",
    "3441": " Rep",
    "3442": "ntando",
    "3443": "ocup",
    "3444": "suced",
    "3445": " Desenvolva",
    "3446": " Bat",
    "3447": " recebe",
    "3448": "fru",
    "3449": " grupos",
    "3450": "Eu",
    "3451": " padrão",
    "3452": " calcular",
    "3453": " década",
    "3454": " revis",
    "3455": " evid",
    "3456": " Tr",
    "3457": " específicas",
    "3458": " expressão",
    "3459": " Identificar",
    "3460": " requer",
    "3461": " empreg",
    "3462": " aposentadoria",
    "3463": "duzir",
    "3464": "ére",
    "3465": " facul",
    "3466": " método",
    "3467": "mão",
    "3468": " organizado",
    "3469": " caminhada",
    "3470": "elas",
    "3471": " aula",
    "3472": " sabe",
    "3473": " brilhante",
    "3474": "face",
    "3475": " háb",
    "3476": " neura",
    "3477": " etapas",
    "3478": " fogo",
    "3479": "alidade",
    "3480": "lor",
    "3481": "ícia",
    "3482": " sensação",
    "3483": " bloc",
    "3484": " mulher",
    "3485": "iada",
    "3486": " mil",
    "3487": "rigir",
    "3488": " bastante",
    "3489": " alegria",
    "3490": " caracte",
    "3491": " escrito",
    "3492": " projetos",
    "3493": " financeiro",
    "3494": "lado",
    "3495": " reconhecimento",
    "3496": " viajar",
    "3497": " cartão",
    "3498": " vídeo",
    "3499": " Te",
    "3500": " Internet",
    "3501": " ilum",
    "3502": " eficazes",
    "3503": " bateria",
    "3504": " espal",
    "3505": " tabe",
    "3506": " descan",
    "3507": "ística",
    "3508": " regras",
    "3509": "itor",
    "3510": " verdad",
    "3511": " culturas",
    "3512": " excele",
    "3513": " visto",
    "3514": " destino",
    "3515": " azeite",
    "3516": " quarto",
    "3517": "ibra",
    "3518": "ness",
    "3519": "ífico",
    "3520": " visu",
    "3521": "ença",
    "3522": " 14",
    "3523": " detectar",
    "3524": " fornecem",
    "3525": " francês",
    "3526": "leza",
    "3527": " san",
    "3528": " queima",
    "3529": " Conver",
    "3530": " títulos",
    "3531": " questões",
    "3532": " particular",
    "3533": " conversa",
    "3534": " boas",
    "3535": "ression",
    "3536": " implica",
    "3537": " normalmente",
    "3538": " mecan",
    "3539": " classificação",
    "3540": "bola",
    "3541": " sinais",
    "3542": " origin",
    "3543": "gada",
    "3544": " intens",
    "3545": " familiar",
    "3546": " propósito",
    "3547": " tarde",
    "3548": " aqueles",
    "3549": " histórias",
    "3550": " selva",
    "3551": " rio",
    "3552": " Calcule",
    "3553": " caixa",
    "3554": " sor",
    "3555": " descreve",
    "3556": " Certo",
    "3557": "gon",
    "3558": "iverso",
    "3559": " segundo",
    "3560": " endereço",
    "3561": " ál",
    "3562": " exclu",
    "3563": "we",
    "3564": " gal",
    "3565": " memória",
    "3566": " pensamentos",
    "3567": " certif",
    "3568": " comunidade",
    "3569": " pesquisas",
    "3570": " compartilh",
    "3571": " cães",
    "3572": "vidos",
    "3573": " princíp",
    "3574": " preocup",
    "3575": " organizações",
    "3576": " veículos",
    "3577": " pandem",
    "3578": " Nos",
    "3579": " demon",
    "3580": "erem",
    "3581": " consta",
    "3582": "Os",
    "3583": "sia",
    "3584": " nossos",
    "3585": " trás",
    "3586": " danos",
    "3587": "ife",
    "3588": "ália",
    "3589": "ivil",
    "3590": "çam",
    "3591": " grav",
    "3592": " beleza",
    "3593": " confiável",
    "3594": "ântica",
    "3595": " grãos",
    "3596": " relacionadas",
    "3597": " configurar",
    "3598": " Quanto",
    "3599": " verme",
    "3600": "ron",
    "3601": " Mante",
    "3602": " Reino",
    "3603": " espor",
    "3604": "ick",
    "3605": " meses",
    "3606": " empréstimo",
    "3607": " Ge",
    "3608": " misture",
    "3609": " sup",
    "3610": "formas",
    "3611": "lama",
    "3612": " longe",
    "3613": " construção",
    "3614": " aulas",
    "3615": "cess",
    "3616": " tendo",
    "3617": "ínas",
    "3618": " mergu"
}